08_04_01
06_07_08
00_07_0F
0B_07_02
0D_07_0B
09_0C_0F
02_03_0F
06_08_05
03_02_0A
02_0D_0F
04_06_09
0E_0F_0D
0D_0A_0B
0C_03_00
0E_0E_05
01_04_0E
03_0A_07
00_0C_06
00_01_04
0A_02_02
06_06_0A
09_05_06
0D_05_0E
04_04_00
03_05_0D
0D_0F_01
00_07_0D
0E_07_07
05_04_0B
00_03_07
03_04_02
01_0E_0F
0D_0E_0A
00_02_03
00_06_09
09_09_03
03_08_06
05_03_09
0C_00_09
06_0C_01
0B_02_03
04_06_07
02_0C_08
01_0A_0D
0D_06_09
01_0C_0C
01_0F_05
02_07_03
08_0E_04
0B_08_00
07_06_05
09_0F_0A
07_0C_0D
0B_02_03
09_08_0B
02_06_0C
05_07_0B
0F_0C_0F
07_05_09
0A_09_07
02_03_08
0A_07_00
0B_0E_00
02_0B_07
0F_05_06
06_04_02
05_09_05
0A_07_0A
0E_0F_08
0D_04_06
08_0E_0C
00_03_00
07_0C_0E
09_0D_0A
0D_03_06
03_07_0B
07_0B_0F
0A_06_0A
0B_01_0A
00_0C_0B
0E_07_0E
01_02_0E
0D_00_04
0D_08_00
09_04_04
08_0D_05
05_02_03
06_00_07
0E_0E_0F
0A_06_03
07_0D_06
05_09_0D
0F_0E_02
0E_0F_05
0E_01_08
0E_04_0C
05_02_0D
0D_0F_04
0B_0B_0F
0E_0E_06
0B_0F_02
0D_0C_02
0C_0D_06
09_0F_0C
0B_09_01
01_0D_03
06_0F_0C
0C_07_0D
01_03_03
05_0A_00
0A_00_0A
07_04_0C
01_06_00
02_0C_08
0A_00_02
08_05_09
09_04_01
0E_0A_02
0E_0E_08
04_07_0F
0E_0D_00
08_06_01
0A_08_03
01_05_0D
06_03_03
0F_0E_04
0F_09_06
06_04_0D
